34a10005
34a10002
3f470042
80b86440
80b1645c
30b90045
31a20008
31a60007
8001e500
31620008
31660007
8001e500
31220008
31260007
8001e500
30e20008
30e60007
8001e500
30a20008
30a60007
8001e500
30620008
30660007
8001e500
30220008
30260007
8001e500
3fe20008
3fe60007
8001e500
3fa20008
3fa60007
8001e500
3f620008
3f660007
8001e500
3f220008
3f260007
8001e500
3ee20008
3ee60007
8001e500
31860008
3003c007
8001e500
30460008
3003c007
8001e500
3f060008
30004007
8001e500
31880008
30000007
8001e500
31460008
30000007
8001e500
31060008
30004007
8001e500
30c60008
30008007
8001e500
30860008
3000c007
8001e500
30480008
30004007
8001e500
30060008
30000007
8001e500
3fc60008
30004007
8001e500
3f860008
30008007
8001e500
3f460008
3000c007
8001e500
3f080008
30008007
8001e500
3ec60008
30000007
8001e500
31a30008
8000a500
31630008
8000a500
31230008
8000a500
30e30008
8000a500
30a30008
8000a500
30630008
8000a500
30230008
8000a500
3fe30008
8000a500
3fa30008
8000a500
3f630008
8000a500
3f230008
8000a500
3ee30008
8000a500
31a40008
80006500
30640008
80006500
3f240008
80006500
319f0008
80016500
315f0008
80016500
311f0008
80016500
30df0008
80016500
309f0008
80016500
305f0008
80016500
301f0008
80016500
3fdf0008
80016500
3f9f0008
80016500
3f5f0008
80016500
3f1f0008
80016500
3edf0008
80016500
31a20007
800020e3
318d0007
800020fd
318b0007
800020ff
21630006
800000c2
21620006
800000c3
215f0006
800000c5
21460006
800000df
21230007
800000e2
21220007
800000e3
211f0007
800000e5
21060007
800000ff
20e30008
80000102
20e20008
80000103
20df0008
80000105
20c60008
8000011f
20a30009
80000122
20a20009
80000123
209f0009
80000125
20860009
8000013f
e00041a5
30002fa0
e010041b
31850007
30004000
800024e0
31a50007
800024e0
31a40007
800064e0
31a30007
8000a4e0
31a20007
8000e4e0
31a10007
800124e0
31a00007
800164e0
319f0007
8001a4e0
319e0007
8001e4e0
31870007
8007a4e0
31860007
8007e4e0
31660007
8007ece0
2165000b
80000560
2164000b
80004560
2163000b
80008560
2162000b
8000c560
2161000b
80010560
2160000b
80014560
215f000b
80018560
215e000b
8001c560
215d000b
80020560
215c000b
80024560
215b000b
80028560
215a000b
8002c560
2159000b
80030560
2158000b
80034560
2157000b
80038560
2156000b
8003c560
2155000b
80040560
2154000b
80044560
2153000b
80048560
2152000b
8004c560
2151000b
80050560
2150000b
80054560
214f000b
80058560
214e000b
8005c560
214d000b
80060560
214c000b
80064560
214b000b
80068560
214a000b
8006c560
2149000b
80070560
2148000b
80074560
2147000b
80078560
2146000b
8007c560
2145000b
80000d60
2144000b
80004d60
2143000b
80008d60
2142000b
8000cd60
2141000b
80010d60
2140000b
80014d60
213f000b
80018d60
213e000b
8001cd60
213d000b
80020d60
213c000b
80024d60
213b000b
80028d60
213a000b
8002cd60
2139000b
80030d60
2138000b
80034d60
2137000b
80038d60
2136000b
8003cd60
2135000b
80040d60
2134000b
80044d60
2133000b
80048d60
2132000b
8004cd60
2131000b
80050d60
2130000b
80054d60
212f000b
80058d60
212e000b
8005cd60
212d000b
80060d60
212c000b
80064d60
212b000b
80068d60
212a000b
8006cd60
2129000b
80070d60
2128000b
80074d60
2127000b
80078d60
2126000b
8007cd60
21250006
800004c0
21240006
800044c0
21230006
800084c0
21220006
8000c4c0
21210006
800104c0
21200006
800144c0
211f0006
800184c0
211e0006
8001c4c0
211d0006
800204c0
211c0006
800244c0
211b0006
800284c0
211a0006
8002c4c0
21190006
800304c0
21180006
800344c0
21170006
800384c0
21160006
8003c4c0
21150006
800404c0
21140006
800444c0
21130006
800484c0
21120006
8004c4c0
21110006
800504c0
21100006
800544c0
210f0006
800584c0
210e0006
8005c4c0
210d0006
800604c0
210c0006
800644c0
210b0006
800684c0
210a0006
8006c4c0
21090006
800704c0
21080006
800744c0
21070006
800784c0
21060006
8007c4c0
21050006
80000cc0
21040006
80004cc0
21030006
80008cc0
21020006
8000ccc0
21010006
80010cc0
21000006
80014cc0
20ff0006
80018cc0
20fe0006
8001ccc0
20fd0006
80020cc0
20fc0006
80024cc0
20fb0006
80028cc0
20fa0006
8002ccc0
20f90006
80030cc0
20f80006
80034cc0
20f70006
80038cc0
20f60006
8003ccc0
20f50006
80040cc0
20f40006
80044cc0
20f30006
80048cc0
20f20006
8004ccc0
20f10006
80050cc0
20f00006
80054cc0
20ef0006
80058cc0
20ee0006
8005ccc0
20ed0006
80060cc0
20ec0006
80064cc0
20eb0006
80068cc0
20ea0006
8006ccc0
20e90006
80070cc0
20e80006
80074cc0
20e70006
80078cc0
20e60006
8007ccc0
20e50006
800004c0
20e40006
800044c0
20e30006
800084c0
20e20006
8000c4c0
20e10006
800104c0
20e00006
800144c0
20df0006
800184c0
20de0006
8001c4c0
20dd0006
800204c0
20dc0006
800244c0
20db0006
800284c0
20da0006
8002c4c0
20d90006
800304c0
20d80006
800344c0
20d70006
800384c0
20d60006
8003c4c0
20d50006
800404c0
20d40006
800444c0
20d30006
800484c0
20d20006
8004c4c0
20d10006
800504c0
20d00006
800544c0
20cf0006
800584c0
20ce0006
8005c4c0
20cd0006
800604c0
20cc0006
800644c0
20cb0006
800684c0
20ca0006
8006c4c0
20c90006
800704c0
20c80006
800744c0
20c70006
800784c0
20c60006
8007c4c0
20c50006
80000cc0
20c40006
80004cc0
20c30006
80008cc0
20c20006
8000ccc0
20c10006
80010cc0
20c00006
80014cc0
20bf0006
80018cc0
20be0006
8001ccc0
20bd0006
80020cc0
20bc0006
80024cc0
20bb0006
80028cc0
20ba0006
8002ccc0
20b90006
80030cc0
20b80006
80034cc0
20b70006
80038cc0
20b60006
8003ccc0
20b50006
80040cc0
20b40006
80044cc0
20b30006
80048cc0
20b20006
8004ccc0
20b10006
80050cc0
20b00006
80054cc0
20af0006
80058cc0
20ae0006
8005ccc0
20ad0006
80060cc0
20ac0006
80064cc0
20ab0006
80068cc0
20aa0006
8006ccc0
20a90006
80070cc0
20a80006
80074cc0
20a70006
80078cc0
20a60006
8007ccc0
20a50006
800004c0
20a40006
800044c0
20a30006
800084c0
20a20006
8000c4c0
20a10006
800104c0
20a00006
800144c0
209f0006
800184c0
209e0006
8001c4c0
209d0006
800204c0
209c0006
800244c0
209b0006
800284c0
209a0006
8002c4c0
20990006
800304c0
20980006
800344c0
20970006
800384c0
20960006
8003c4c0
20950006
800404c0
20940006
800444c0
20930006
800484c0
20920006
8004c4c0
20910006
800504c0
20900006
800544c0
208f0006
800584c0
208e0006
8005c4c0
208d0006
800604c0
208c0006
800644c0
208b0006
800684c0
208a0006
8006c4c0
20890006
800704c0
20880006
800744c0
20870006
800784c0
20860006
8007c4c0
20850006
80000cc0
20840006
80004cc0
20830006
80008cc0
20820006
8000ccc0
20810006
80010cc0
20800006
80014cc0
207f0006
80018cc0
207e0006
8001ccc0
207d0006
80020cc0
207c0006
80024cc0
207b0006
80028cc0
207a0006
8002ccc0
20790006
80030cc0
20780006
80034cc0
20770006
80038cc0
20760006
8003ccc0
20750006
80040cc0
20740006
80044cc0
20730006
80048cc0
20720006
8004ccc0
20710006
80050cc0
20700006
80054cc0
206f0006
80058cc0
206e0006
8005ccc0
206d0006
80060cc0
206c0006
80064cc0
206b0006
80068cc0
206a0006
8006ccc0
20690006
80070cc0
20680006
80074cc0
20670006
80078cc0
20660006
8007ccc0
e00002b9
30006fa0
e010041b
30450007
30004000
800024e0
30650007
800024e0
30640007
800064e0
30630007
8000a4e0
30620007
8000e4e0
30610007
800124e0
30600007
800164e0
305f0007
8001a4e0
305e0007
8001e4e0
30470007
8007a4e0
30460007
8007e4e0
30260007
8007ece0
20250006
800004c0
20240006
800044c0
20230006
800084c0
20220006
8000c4c0
20210006
800104c0
20200006
800144c0
201f0006
800184c0
201e0006
8001c4c0
201d0006
800204c0
201c0006
800244c0
201b0006
800284c0
201a0006
8002c4c0
20190006
800304c0
20180006
800344c0
20170006
800384c0
20160006
8003c4c0
20150006
800404c0
20140006
800444c0
20130006
800484c0
20120006
8004c4c0
20110006
800504c0
20100006
800544c0
200f0006
800584c0
200e0006
8005c4c0
200d0006
800604c0
200c0006
800644c0
200b0006
800684c0
200a0006
8006c4c0
20090006
800704c0
20080006
800744c0
20070006
800784c0
20060006
8007c4c0
20050006
80000cc0
20040006
80004cc0
20030006
80008cc0
20020006
8000ccc0
20010006
80010cc0
20000006
80014cc0
2fff0006
80018cc0
2ffe0006
8001ccc0
2ffd0006
80020cc0
2ffc0006
80024cc0
2ffb0006
80028cc0
2ffa0006
8002ccc0
2ff90006
80030cc0
2ff80006
80034cc0
2ff70006
80038cc0
2ff60006
8003ccc0
2ff50006
80040cc0
2ff40006
80044cc0
2ff30006
80048cc0
2ff20006
8004ccc0
2ff10006
80050cc0
2ff00006
80054cc0
2fef0006
80058cc0
2fee0006
8005ccc0
2fed0006
80060cc0
2fec0006
80064cc0
2feb0006
80068cc0
2fea0006
8006ccc0
2fe90006
80070cc0
2fe80006
80074cc0
2fe70006
80078cc0
2fe60006
8007ccc0
2fe50006
800004c0
2fe40006
800044c0
2fe30006
800084c0
2fe20006
8000c4c0
2fe10006
800104c0
2fe00006
800144c0
2fdf0006
800184c0
2fde0006
8001c4c0
2fdd0006
800204c0
2fdc0006
800244c0
2fdb0006
800284c0
2fda0006
8002c4c0
2fd90006
800304c0
2fd80006
800344c0
2fd70006
800384c0
2fd60006
8003c4c0
2fd50006
800404c0
2fd40006
800444c0
2fd30006
800484c0
2fd20006
8004c4c0
2fd10006
800504c0
2fd00006
800544c0
2fcf0006
800584c0
2fce0006
8005c4c0
2fcd0006
800604c0
2fcc0006
800644c0
2fcb0006
800684c0
2fca0006
8006c4c0
2fc90006
800704c0
2fc80006
800744c0
2fc70006
800784c0
2fc60006
8007c4c0
2fc50006
80000cc0
2fc40006
80004cc0
2fc30006
80008cc0
2fc20006
8000ccc0
2fc10006
80010cc0
2fc00006
80014cc0
2fbf0006
80018cc0
2fbe0006
8001ccc0
2fbd0006
80020cc0
2fbc0006
80024cc0
2fbb0006
80028cc0
2fba0006
8002ccc0
2fb90006
80030cc0
2fb80006
80034cc0
2fb70006
80038cc0
2fb60006
8003ccc0
2fb50006
80040cc0
2fb40006
80044cc0
2fb30006
80048cc0
2fb20006
8004ccc0
2fb10006
80050cc0
2fb00006
80054cc0
2faf0006
80058cc0
2fae0006
8005ccc0
2fad0006
80060cc0
2fac0006
80064cc0
2fab0006
80068cc0
2faa0006
8006ccc0
2fa90006
80070cc0
2fa80006
80074cc0
2fa70006
80078cc0
2fa60006
8007ccc0
2fa50006
800004c0
2fa40006
800044c0
2fa30006
800084c0
2fa20006
8000c4c0
2fa10006
800104c0
2fa00006
800144c0
2f9f0006
800184c0
2f9e0006
8001c4c0
2f9d0006
800204c0
2f9c0006
800244c0
2f9b0006
800284c0
2f9a0006
8002c4c0
2f990006
800304c0
2f980006
800344c0
2f970006
800384c0
2f960006
8003c4c0
2f950006
800404c0
2f940006
800444c0
2f930006
800484c0
2f920006
8004c4c0
2f910006
800504c0
2f900006
800544c0
2f8f0006
800584c0
2f8e0006
8005c4c0
2f8d0006
800604c0
2f8c0006
800644c0
2f8b0006
800684c0
2f8a0006
8006c4c0
2f890006
800704c0
2f880006
800744c0
2f870006
800784c0
2f860006
8007c4c0
2f850006
80000cc0
2f840006
80004cc0
2f830006
80008cc0
2f820006
8000ccc0
2f810006
80010cc0
2f800006
80014cc0
2f7f0006
80018cc0
2f7e0006
8001ccc0
2f7d0006
80020cc0
2f7c0006
80024cc0
2f7b0006
80028cc0
2f7a0006
8002ccc0
2f790006
80030cc0
2f780006
80034cc0
2f770006
80038cc0
2f760006
8003ccc0
2f750006
80040cc0
2f740006
80044cc0
2f730006
80048cc0
2f720006
8004ccc0
2f710006
80050cc0
2f700006
80054cc0
2f6f0006
80058cc0
2f6e0006
8005ccc0
2f6d0006
80060cc0
2f6c0006
80064cc0
2f6b0006
80068cc0
2f6a0006
8006ccc0
2f690006
80070cc0
2f680006
80074cc0
2f670006
80078cc0
2f660006
8007ccc0
2f650006
800004c0
2f640006
800044c0
2f630006
800084c0
2f620006
8000c4c0
2f610006
800104c0
2f600006
800144c0
2f5f0006
800184c0
2f5e0006
8001c4c0
2f5d0006
800204c0
2f5c0006
800244c0
2f5b0006
800284c0
2f5a0006
8002c4c0
2f590006
800304c0
2f580006
800344c0
2f570006
800384c0
2f560006
8003c4c0
2f550006
800404c0
2f540006
800444c0
2f530006
800484c0
2f520006
8004c4c0
2f510006
800504c0
2f500006
800544c0
2f4f0006
800584c0
2f4e0006
8005c4c0
2f4d0006
800604c0
2f4c0006
800644c0
2f4b0006
800684c0
2f4a0006
8006c4c0
2f490006
800704c0
2f480006
800744c0
2f470006
800784c0
2f460006
8007c4c0
2f450006
80000cc0
2f440006
80004cc0
2f430006
80008cc0
2f420006
8000ccc0
2f410006
80010cc0
2f400006
80014cc0
2f3f0006
80018cc0
2f3e0006
8001ccc0
2f3d0006
80020cc0
2f3c0006
80024cc0
2f3b0006
80028cc0
2f3a0006
8002ccc0
2f390006
80030cc0
2f380006
80034cc0
2f370006
80038cc0
2f360006
8003ccc0
2f350006
80040cc0
2f340006
80044cc0
2f330006
80048cc0
2f320006
8004ccc0
2f310006
80050cc0
2f300006
80054cc0
2f2f0006
80058cc0
2f2e0006
8005ccc0
2f2d0006
80060cc0
2f2c0006
80064cc0
2f2b0006
80068cc0
2f2a0006
8006ccc0
2f290006
80070cc0
2f280006
80074cc0
2f270006
80078cc0
2f260006
8007ccc0
e000009d
3000afa0
e000241b
3f050007
30004000
800024e0
3f250007
800024e0
3f240007
800064e0
3f230007
8000a4e0
3f220007
8000e4e0
3f210007
800124e0
3f200007
800164e0
3f1f0007
8001a4e0
3f1e0007
8001e4e0
3f070007
8007a4e0
3f060007
8007e4e0
3ee60007
8007ece0
2ee50006
800004c0
2ee40006
800044c0
2ee30006
800084c0
2ee20006
8000c4c0
2ee10006
800104c0
2ee00006
800144c0
2edf0006
800184c0
2ede0006
8001c4c0
2edd0006
800204c0
2edc0006
800244c0
2edb0006
800284c0
2eda0006
8002c4c0
2ed90006
800304c0
2ed80006
800344c0
2ed70006
800384c0
2ed60006
8003c4c0
2ed50006
800404c0
2ed40006
800444c0
2ed30006
800484c0
2ed20006
8004c4c0
2ed10006
800504c0
2ed00006
800544c0
2ecf0006
800584c0
2ece0006
8005c4c0
2ecd0006
800604c0
2ecc0006
800644c0
2ecb0006
800684c0
2eca0006
8006c4c0
2ec90006
800704c0
2ec80006
800744c0
2ec70006
800784c0
2ec60006
8007c4c0
2ec50006
80000cc0
2ec40006
80004cc0
2ec30006
80008cc0
2ec20006
8000ccc0
2ec10006
80010cc0
2ec00006
80014cc0
2ebf0006
80018cc0
2ebe0006
8001ccc0
2ebd0006
80020cc0
2ebc0006
80024cc0
2ebb0006
80028cc0
2eba0006
8002ccc0
2eb90006
80030cc0
2eb80006
80034cc0
2eb70006
80038cc0
2eb60006
8003ccc0
2eb50006
80040cc0
2eb40006
80044cc0
2eb30006
80048cc0
2eb20006
8004ccc0
2eb10006
80050cc0
2eb00006
80054cc0
2eaf0006
80058cc0
2eae0006
8005ccc0
2ead0006
80060cc0
2eac0006
80064cc0
2eab0006
80068cc0
2eaa0006
8006ccc0
2ea90006
80070cc0
2ea80006
80074cc0
2ea70006
80078cc0
2ea60006
8007ccc0
e0000001
31850000
80002000
e0000408
30450000
80002000
e010041c
3f050000
80002000
e0200410
e00020c6
31a50007
800020e0
31a40007
800020e1
31a30007
800020e2
31a20007
800020e3
31a10007
800020e4
31a00007
800020e5
319f0007
800020e6
319e0007
800020e7
31870007
800020fe
31860007
800020ff
31660007
800028ff
2165000b
80000160
2164000b
80000161
2163000b
80000162
2162000b
80000163
2161000b
80000164
2160000b
80000165
215f000b
80000166
215e000b
80000167
215d000b
80000168
215c000b
80000169
215b000b
8000016a
215a000b
8000016b
2159000b
8000016c
2158000b
8000016d
2157000b
8000016e
2156000b
8000016f
2155000b
80000170
2154000b
80000171
2153000b
80000172
2152000b
80000173
2151000b
80000174
2150000b
80000175
214f000b
80000176
214e000b
80000177
214d000b
80000178
214c000b
80000179
214b000b
8000017a
214a000b
8000017b
2149000b
8000017c
2148000b
8000017d
2147000b
8000017e
2146000b
8000017f
2145000b
80000960
2144000b
80000961
2143000b
80000962
2142000b
80000963
2141000b
80000964
2140000b
80000965
213f000b
80000966
213e000b
80000967
213d000b
80000968
213c000b
80000969
213b000b
8000096a
213a000b
8000096b
2139000b
8000096c
2138000b
8000096d
2137000b
8000096e
2136000b
8000096f
2135000b
80000970
2134000b
80000971
2133000b
80000972
2132000b
80000973
2131000b
80000974
2130000b
80000975
212f000b
80000976
212e000b
80000977
212d000b
80000978
212c000b
80000979
212b000b
8000097a
212a000b
8000097b
2129000b
8000097c
2128000b
8000097d
2127000b
8000097e
2126000b
8000097f
21250006
800000c0
21240006
800000c1
21230006
800000c2
21220006
800000c3
21210006
800000c4
21200006
800000c5
211f0006
800000c6
211e0006
800000c7
211d0006
800000c8
211c0006
800000c9
211b0006
800000ca
211a0006
800000cb
21190006
800000cc
21180006
800000cd
21170006
800000ce
21160006
800000cf
21150006
800000d0
21140006
800000d1
21130006
800000d2
21120006
800000d3
21110006
800000d4
21100006
800000d5
210f0006
800000d6
210e0006
800000d7
210d0006
800000d8
210c0006
800000d9
210b0006
800000da
210a0006
800000db
21090006
800000dc
21080006
800000dd
21070006
800000de
21060006
800000df
21050006
800008c0
21040006
800008c1
21030006
800008c2
21020006
800008c3
21010006
800008c4
21000006
800008c5
20ff0006
800008c6
20fe0006
800008c7
20fd0006
800008c8
20fc0006
800008c9
20fb0006
800008ca
20fa0006
800008cb
20f90006
800008cc
20f80006
800008cd
20f70006
800008ce
20f60006
800008cf
20f50006
800008d0
20f40006
800008d1
20f30006
800008d2
20f20006
800008d3
20f10006
800008d4
20f00006
800008d5
20ef0006
800008d6
20ee0006
800008d7
20ed0006
800008d8
20ec0006
800008d9
20eb0006
800008da
20ea0006
800008db
20e90006
800008dc
20e80006
800008dd
20e70006
800008de
20e60006
800008df
20e50006
800000c0
20e40006
800000c1
20e30006
800000c2
20e20006
800000c3
20e10006
800000c4
20e00006
800000c5
20df0006
800000c6
20de0006
800000c7
20dd0006
800000c8
20dc0006
800000c9
20db0006
800000ca
20da0006
800000cb
20d90006
800000cc
20d80006
800000cd
20d70006
800000ce
20d60006
800000cf
20d50006
800000d0
20d40006
800000d1
20d30006
800000d2
20d20006
800000d3
20d10006
800000d4
20d00006
800000d5
20cf0006
800000d6
20ce0006
800000d7
20cd0006
800000d8
20cc0006
800000d9
20cb0006
800000da
20ca0006
800000db
20c90006
800000dc
20c80006
800000dd
20c70006
800000de
20c60006
800000df
20c50006
800008c0
20c40006
800008c1
20c30006
800008c2
20c20006
800008c3
20c10006
800008c4
20c00006
800008c5
20bf0006
800008c6
20be0006
800008c7
20bd0006
800008c8
20bc0006
800008c9
20bb0006
800008ca
20ba0006
800008cb
20b90006
800008cc
20b80006
800008cd
20b70006
800008ce
20b60006
800008cf
20b50006
800008d0
20b40006
800008d1
20b30006
800008d2
20b20006
800008d3
20b10006
800008d4
20b00006
800008d5
20af0006
800008d6
20ae0006
800008d7
20ad0006
800008d8
20ac0006
800008d9
20ab0006
800008da
20aa0006
800008db
20a90006
800008dc
20a80006
800008dd
20a70006
800008de
20a60006
800008df
20a50006
800000c0
20a40006
800000c1
20a30006
800000c2
20a20006
800000c3
20a10006
800000c4
20a00006
800000c5
209f0006
800000c6
209e0006
800000c7
209d0006
800000c8
209c0006
800000c9
209b0006
800000ca
209a0006
800000cb
20990006
800000cc
20980006
800000cd
20970006
800000ce
20960006
800000cf
20950006
800000d0
20940006
800000d1
20930006
800000d2
20920006
800000d3
20910006
800000d4
20900006
800000d5
208f0006
800000d6
208e0006
800000d7
208d0006
800000d8
208c0006
800000d9
208b0006
800000da
208a0006
800000db
20890006
800000dc
20880006
800000dd
20870006
800000de
20860006
800000df
20850006
800008c0
20840006
800008c1
20830006
800008c2
20820006
800008c3
20810006
800008c4
20800006
800008c5
207f0006
800008c6
207e0006
800008c7
207d0006
800008c8
207c0006
800008c9
207b0006
800008ca
207a0006
800008cb
20790006
800008cc
20780006
800008cd
20770006
800008ce
20760006
800008cf
20750006
800008d0
20740006
800008d1
20730006
800008d2
20720006
800008d3
20710006
800008d4
20700006
800008d5
206f0006
800008d6
206e0006
800008d7
206d0006
800008d8
206c0006
800008d9
206b0006
800008da
206a0006
800008db
20690006
800008dc
20680006
800008dd
20670006
800008de
20660006
800008df
e00002b0
30650007
800020e0
30640007
800020e1
30630007
800020e2
30620007
800020e3
30610007
800020e4
30600007
800020e5
305f0007
800020e6
305e0007
800020e7
30470007
800020fe
30460007
800020ff
30260007
800028ff
20250006
800000c0
20240006
800000c1
20230006
800000c2
20220006
800000c3
20210006
800000c4
20200006
800000c5
201f0006
800000c6
201e0006
800000c7
201d0006
800000c8
201c0006
800000c9
201b0006
800000ca
201a0006
800000cb
20190006
800000cc
20180006
800000cd
20170006
800000ce
20160006
800000cf
20150006
800000d0
20140006
800000d1
20130006
800000d2
20120006
800000d3
20110006
800000d4
20100006
800000d5
200f0006
800000d6
200e0006
800000d7
200d0006
800000d8
200c0006
800000d9
200b0006
800000da
200a0006
800000db
20090006
800000dc
20080006
800000dd
20070006
800000de
20060006
800000df
20050006
800008c0
20040006
800008c1
20030006
800008c2
20020006
800008c3
20010006
800008c4
20000006
800008c5
2fff0006
800008c6
2ffe0006
800008c7
2ffd0006
800008c8
2ffc0006
800008c9
2ffb0006
800008ca
2ffa0006
800008cb
2ff90006
800008cc
2ff80006
800008cd
2ff70006
800008ce
2ff60006
800008cf
2ff50006
800008d0
2ff40006
800008d1
2ff30006
800008d2
2ff20006
800008d3
2ff10006
800008d4
2ff00006
800008d5
2fef0006
800008d6
2fee0006
800008d7
2fed0006
800008d8
2fec0006
800008d9
2feb0006
800008da
2fea0006
800008db
2fe90006
800008dc
2fe80006
800008dd
2fe70006
800008de
2fe60006
800008df
2fe50006
800000c0
2fe40006
800000c1
2fe30006
800000c2
2fe20006
800000c3
2fe10006
800000c4
2fe00006
800000c5
2fdf0006
800000c6
2fde0006
800000c7
2fdd0006
800000c8
2fdc0006
800000c9
2fdb0006
800000ca
2fda0006
800000cb
2fd90006
800000cc
2fd80006
800000cd
2fd70006
800000ce
2fd60006
800000cf
2fd50006
800000d0
2fd40006
800000d1
2fd30006
800000d2
2fd20006
800000d3
2fd10006
800000d4
2fd00006
800000d5
2fcf0006
800000d6
2fce0006
800000d7
2fcd0006
800000d8
2fcc0006
800000d9
2fcb0006
800000da
2fca0006
800000db
2fc90006
800000dc
2fc80006
800000dd
2fc70006
800000de
2fc60006
800000df
2fc50006
800008c0
2fc40006
800008c1
2fc30006
800008c2
2fc20006
800008c3
2fc10006
800008c4
2fc00006
800008c5
2fbf0006
800008c6
2fbe0006
800008c7
2fbd0006
800008c8
2fbc0006
800008c9
2fbb0006
800008ca
2fba0006
800008cb
2fb90006
800008cc
2fb80006
800008cd
2fb70006
800008ce
2fb60006
800008cf
2fb50006
800008d0
2fb40006
800008d1
2fb30006
800008d2
2fb20006
800008d3
2fb10006
800008d4
2fb00006
800008d5
2faf0006
800008d6
2fae0006
800008d7
2fad0006
800008d8
2fac0006
800008d9
2fab0006
800008da
2faa0006
800008db
2fa90006
800008dc
2fa80006
800008dd
2fa70006
800008de
2fa60006
800008df
2fa50006
800000c0
2fa40006
800000c1
2fa30006
800000c2
2fa20006
800000c3
2fa10006
800000c4
2fa00006
800000c5
2f9f0006
800000c6
2f9e0006
800000c7
2f9d0006
800000c8
2f9c0006
800000c9
2f9b0006
800000ca
2f9a0006
800000cb
2f990006
800000cc
2f980006
800000cd
2f970006
800000ce
2f960006
800000cf
2f950006
800000d0
2f940006
800000d1
2f930006
800000d2
2f920006
800000d3
2f910006
800000d4
2f900006
800000d5
2f8f0006
800000d6
2f8e0006
800000d7
2f8d0006
800000d8
2f8c0006
800000d9
2f8b0006
800000da
2f8a0006
800000db
2f890006
800000dc
2f880006
800000dd
2f870006
800000de
2f860006
800000df
2f850006
800008c0
2f840006
800008c1
2f830006
800008c2
2f820006
800008c3
2f810006
800008c4
2f800006
800008c5
2f7f0006
800008c6
2f7e0006
800008c7
2f7d0006
800008c8
2f7c0006
800008c9
2f7b0006
800008ca
2f7a0006
800008cb
2f790006
800008cc
2f780006
800008cd
2f770006
800008ce
2f760006
800008cf
2f750006
800008d0
2f740006
800008d1
2f730006
800008d2
2f720006
800008d3
2f710006
800008d4
2f700006
800008d5
2f6f0006
800008d6
2f6e0006
800008d7
2f6d0006
800008d8
2f6c0006
800008d9
2f6b0006
800008da
2f6a0006
800008db
2f690006
800008dc
2f680006
800008dd
2f670006
800008de
2f660006
800008df
2f650006
800000c0
2f640006
800000c1
2f630006
800000c2
2f620006
800000c3
2f610006
800000c4
2f600006
800000c5
2f5f0006
800000c6
2f5e0006
800000c7
2f5d0006
800000c8
2f5c0006
800000c9
2f5b0006
800000ca
2f5a0006
800000cb
2f590006
800000cc
2f580006
800000cd
2f570006
800000ce
2f560006
800000cf
2f550006
800000d0
2f540006
800000d1
2f530006
800000d2
2f520006
800000d3
2f510006
800000d4
2f500006
800000d5
2f4f0006
800000d6
2f4e0006
800000d7
2f4d0006
800000d8
2f4c0006
800000d9
2f4b0006
800000da
2f4a0006
800000db
2f490006
800000dc
2f480006
800000dd
2f470006
800000de
2f460006
800000df
2f450006
800008c0
2f440006
800008c1
2f430006
800008c2
2f420006
800008c3
2f410006
800008c4
2f400006
800008c5
2f3f0006
800008c6
2f3e0006
800008c7
2f3d0006
800008c8
2f3c0006
800008c9
2f3b0006
800008ca
2f3a0006
800008cb
2f390006
800008cc
2f380006
800008cd
2f370006
800008ce
2f360006
800008cf
2f350006
800008d0
2f340006
800008d1
2f330006
800008d2
2f320006
800008d3
2f310006
800008d4
2f300006
800008d5
2f2f0006
800008d6
2f2e0006
800008d7
2f2d0006
800008d8
2f2c0006
800008d9
2f2b0006
800008da
2f2a0006
800008db
2f290006
800008dc
2f280006
800008dd
2f270006
800008de
2f260006
800008df
e0000099
3f250007
800020e0
3f240007
800020e1
3f230007
800020e2
3f220007
800020e3
3f210007
800020e4
3f200007
800020e5
3f1f0007
800020e6
3f1e0007
800020e7
3f070007
800020fe
3f060007
800020ff
3ee60007
800028ff
2ee50006
800000c0
2ee40006
800000c1
2ee30006
800000c2
2ee20006
800000c3
2ee10006
800000c4
2ee00006
800000c5
2edf0006
800000c6
2ede0006
800000c7
2edd0006
800000c8
2edc0006
800000c9
2edb0006
800000ca
2eda0006
800000cb
2ed90006
800000cc
2ed80006
800000cd
2ed70006
800000ce
2ed60006
800000cf
2ed50006
800000d0
2ed40006
800000d1
2ed30006
800000d2
2ed20006
800000d3
2ed10006
800000d4
2ed00006
800000d5
2ecf0006
800000d6
2ece0006
800000d7
2ecd0006
800000d8
2ecc0006
800000d9
2ecb0006
800000da
2eca0006
800000db
2ec90006
800000dc
2ec80006
800000dd
2ec70006
800000de
2ec60006
800000df
2ec50006
800008c0
2ec40006
800008c1
2ec30006
800008c2
2ec20006
800008c3
2ec10006
800008c4
2ec00006
800008c5
2ebf0006
800008c6
2ebe0006
800008c7
2ebd0006
800008c8
2ebc0006
800008c9
2ebb0006
800008ca
2eba0006
800008cb
2eb90006
800008cc
2eb80006
800008cd
2eb70006
800008ce
2eb60006
800008cf
2eb50006
800008d0
2eb40006
800008d1
2eb30006
800008d2
2eb20006
800008d3
2eb10006
800008d4
2eb00006
800008d5
2eaf0006
800008d6
2eae0006
800008d7
2ead0006
800008d8
2eac0006
800008d9
2eab0006
800008da
2eaa0006
800008db
2ea90006
800008dc
2ea80006
800008dd
2ea70006
800008de
2ea60006
800008df
e0000002
e000019a
200003e6
200000c7
20004006
2000a8c6
20b70008
00018506
000080c6
800008c4
000000e8
20000008
2000a906
20b10008
00018506
000080c6
800008c5
40014483
40002062
20004006
2000a8c6
20b40008
00018506
000080c6
800008c5
000000e8
20000008
2000a906
20a80008
00018506
000080c6
800008c6
400184a4
40002083
4000c041
000000e8
20004006
000000c6
2000a8c6
209f0008
00018506
000080c6
80004cc0
20008006
2000a8c6
20b70008
00018506
000080c6
800008c4
000000e8
20000008
2000a906
20b10008
00018506
000080c6
800008c5
40014483
40002062
20008006
2000a8c6
20b40008
00018506
000080c6
800008c5
000000e8
20000008
2000a906
20a80008
00018506
000080c6
800008c6
400184a4
40002083
4000c041
000000e8
20028006
000000c6
2000a8c6
209f0008
00018506
000080c6
80004cc0
2000c006
2000a8c6
20b70008
00018506
000080c6
800008c4
000000e8
20000008
2000a906
20b10008
00018506
000080c6
800008c5
40014483
40002062
2000c006
2000a8c6
20b40008
00018506
000080c6
800008c5
000000e8
20000008
2000a906
20a80008
00018506
000080c6
800008c6
400184a4
40002083
4000c041
000000e8
2004c006
000000c6
2000a8c6
209f0008
00018506
000080c6
80004cc0
000000e9
20004008
00000108
2000a908
209f0009
00020528
00008108
80000901
000000e9
20028008
00000108
2000a908
209f0009
00020528
00008108
80000902
000000e9
20004008
00000108
2000a908
209f0009
00020528
00008108
80000901
000000e9
20000009
2000a928
20840009
00020528
00008108
80004d00
20000008
000000ea
2000000a
2000a949
207b000a
00024549
00008129
80020520
10002fff
000000e9
20028008
00000108
2000a908
209f0009
00020528
00008108
80000901
000000e9
20000009
2000a928
20840009
00020528
00008108
80004d00
20004008
000000ea
2000000a
2000a949
207b000a
00024549
00008129
80020520
3003c01f
000000e9
2004c008
00000108
2000a908
209f0009
00020528
00008108
80000901
000000e9
20000009
2000a928
20840009
00020528
00008108
80000902
20008008
000000ea
2000000a
2000a949
207b000a
00024549
00008129
80020520
3003c01f
000000e9
20000009
2000a928
207b0009
00020528
00008108
80000106
200000c8
30000007
8019e45c
801f2048
3000c009
10025107
e00004f0
801f004c
801c004d
0003598b
000000ef
2000000f
2000a9ed
20b1000f
000345ed
000081ad
800009a1
000000ef
2000400d
000001ad
2000a9ad
2057000f
000345ed
000081ad
80004da0
000000ef
2000000f
2000a9ed
20a8000f
000345ed
000081ad
800009a1
000000ef
2000400d
000001ad
2000a9ad
203c000f
000345ed
000081ad
80004da0
6000000d
800009a1
000000ef
2000400d
000001ad
2000a9ad
2072000f
000345ed
000081ad
80004da0
10002fff
6000000d
800109a1
000000ef
2000400d
000001ad
2000a9ad
2057000f
000345ed
000081ad
80004da0
6000000d
800209a1
000000ef
2000400d
000001ad
2000a9ad
203c000f
000345ed
000081ad
80004da0
6000000d
800309a1
000000ef
2000400d
000001ad
2000a9ad
2072000f
000345ed
000081ad
80004da0
3003c01f
801f2047
300040e8
801a245c
ffffe3ae
30000007
8019e458
801e2049
3001000a
10029127
e00004e5
3b8e001e
8020004c
2000400f
801e0050
000415ed
0003418b
2000016c
801d004d
2002400f
a003c1bf
30000007
8019e45c
801f2049
3000c00a
10029127
e00004f0
000000f0
2000400f
000001ef
2000a9ef
20570010
0003c60f
000081ef
800009e2
00000190
2000400f
000001ef
2000a9ef
20570010
0003c60f
000081ef
800009e3
4000c041
000000f0
2000400f
000001ef
2000a9ef
20570010
0003c60f
000081ef
80004de0
000000f0
2000400f
000001ef
2000a9ef
203c0010
0003c60f
000081ef
800009e2
00000190
2000400f
000001ef
2000a9ef
203c0010
0003c60f
000081ef
800009e3
4000c041
000000f0
2000400f
000001ef
2000a9ef
203c0010
0003c60f
000081ef
80004de0
000000f0
2000400f
000001ef
2000a9ef
20720010
0003c60f
000081ef
800009e2
00000190
2000400f
000001ef
2000a9ef
20720010
0003c60f
000081ef
800009e3
4000c041
000000f0
2000400f
000001ef
2000a9ef
20720010
0003c60f
000081ef
80004de0
801f2047
300040e9
801a645c
ffffe3ae
3003c01f
801e2047
300040ea
801aa458
ffffe399
ffffa0c4
30014006
e0000001
80b72045
80b82041
30b90042
e0001c00
